<pad>	0
<s>	0
</s>	0
<unk>	0
<query>	0
</query>	0
<facts>	0
</facts>	0
<think>	0
</think>	0
<response>	0
</response>	0
▁t	-0
▁a	-1
in	-2
he	-3
on	-4
re	-5
at	-6
es	-7
▁c	-8
▁the	-9
or	-10
er	-11
▁s	-12
is	-13
nd	-14
▁f	-15
▁p	-16
en	-17
ic	-18
ing	-19
ro	-20
ion	-21
an	-22
▁o	-23
ct	-24
it	-25
▁d	-26
▁in	-27
▁w	-28
▁b	-29
le	-30
▁m	-31
▁and	-32
al	-33
us	-34
ed	-35
▁of	-36
ar	-37
▁is	-38
▁re	-39
▁to	-40
▁th	-41
el	-42
▁l	-43
▁e	-44
▁pro	-45
ut	-46
ent	-47
ation	-48
ol	-49
▁(	-50
et	-51
▁T	-52
ig	-53
as	-54
▁n	-55
ce	-56
▁for	-57
act	-58
ac	-59
id	-60
▁con	-61
ow	-62
ec	-63
▁h	-64
ag	-65
▁that	-66
ect	-67
▁us	-68
▁st	-69
om	-70
ur	-71
am	-72
ly	-73
em	-74
un	-75
if	-76
igh	-77
ul	-78
▁as	-79
▁v	-80
▁tr	-81
▁The	-82
▁can	-83
ust	-84
ir	-85
iv	-86
▁g	-87
ess	-88
▁al	-89
▁or	-90
av	-91
im	-92
st	-93
▁I	-94
ork	-95
▁by	-96
th	-97
▁wh	-98
ight	-99
ke	-100
und	-101
ain	-102
▁de	-103
no	-104
qu	-105
ers	-106
ith	-107
▁en	-108
▁le	-109
ab	-110
▁mo	-111
▁dat	-112
lect	-113
▁fact	-114
▁work	-115
▁on	-116
▁com	-117
ons	-118
▁it	-119
▁are	-120
pl	-121
ter	-122
ver	-123
de	-124
per	-125
▁with	-126
ren	-127
▁ex	-128
ack	-129
ich	-130
os	-131
tr	-132
ure	-133
ions	-134
▁facts	-135
il	-136
oc	-137
cess	-138
▁data	-139
ang	-140
for	-141
low	-142
ical	-143
▁which	-144
ity	-145
vel	-146
▁su	-147
form	-148
ject	-149
▁be	-150
▁ch	-151
ame	-152
ies	-153
put	-154
▁sp	-155
lu	-156
▁A	-157
ate	-158
ick	-159
og	-160
▁Th	-161
▁elect	-162
ach	-163
age	-164
▁at	-165
▁process	-166
rom	-167
▁This	-168
0.	-169
ant	-170
ist	-171
▁do	-172
▁res	-173
iz	-174
ory	-175
▁li	-176
Wh	-177
ot	-178
pt	-179
um	-180
ans	-181
etw	-182
red	-183
Nick	-184
▁name	-185
ib	-186
ug	-187
ial	-188
▁an	-189
▁ap	-190
▁light	-191
▁inform	-192
ch	-193
se	-194
aus	-195
ech	-196
est	-197
net	-198
ugh	-199
▁It	-200
ater	-201
rough	-202
▁from	-203
▁their	-204
▁through	-205
▁information	-206
▁E	-207
the	-208
▁ne	-209
▁sy	-210
here	-211
velo	-212
▁col	-213
ition	-214
ations	-215
0.9	-216
ari	-217
▁ro	-218
▁un	-219
▁develo	-220
fe	-221
li	-222
od	-223
▁he	-224
rent	-225
▁mem	-226
▁user	-227
▁trust	-228
▁electr	-229
▁project	-230
ad	-231
du	-232
▁-	-233
all	-234
out	-235
ance	-236
arth	-237
stem	-238
▁int	-239
agnet	-240
trust	-241
▁allow	-242
ay	-243
The	-244
ary	-245
▁pr	-246
What	-247
ning	-248
▁gen	-249
▁inc	-250
▁form	-251
▁memory	-252
▁system	-253
▁W	-254
ive	-255
▁we	-256
ment	-257
plic	-258
▁caus	-259
ak	-260
How	-261
ign	-262
ous	-263
res	-264
ull	-265
vol	-266
▁cont	-267
▁comput	-268
ue	-269
art	-270
ass	-271
erg	-272
hen	-273
▁pl	-274
▁se	-275
▁so	-276
ated	-277
ates	-278
ific	-279
▁dif	-280
▁has	-281
▁rec	-282
round	-283
▁Nick	-284
▁trans	-285
ms	-286
pe	-287
ry	-288
▁r	-289
een	-290
ell	-291
ely	-292
its	-293
▁im	-294
▁ke	-295
▁ob	-296
▁qu	-297
0.95	-298
▁air	-299
▁betw	-300
▁like	-301
▁spec	-302
▁Earth	-303
▁diffe	-304
▁between	-305
▁P	-306
ces	-307
ine	-308
vid	-309
able	-310
ther	-311
▁bas	-312
▁per	-313
▁str	-314
ction	-315
▁they	-316
▁chang	-317
▁inclu	-318
▁works	-319
▁provid	-320
gr	-321
ong	-322
ore	-323
ult	-324
▁ac	-325
nect	-326
rypt	-327
ating	-328
atter	-329
▁into	-330
▁lear	-331
▁tech	-332
▁There	-333
▁inter	-334
▁using	-335
),	-336
pa	-337
ple	-338
▁tw	-339
ence	-340
olog	-341
▁ind	-342
▁key	-343
▁such	-344
▁vari	-345
▁where	-346
▁magnet	-347
dd	-348
ep	-349
hem	-350
ite	-351
led	-352
ord	-353
ors	-354
rav	-355
vic	-356
ally	-357
avel	-358
▁cre	-359
▁enc	-360
▁fun	-361
vices	-362
▁cons	-363
▁part	-364
▁prot	-365
▁resp	-366
▁sign	-367
▁used	-368
▁these	-369
▁applic	-370
▁connect	-371
▁O	-372
▁U	-373
mun	-374
ves	-375
▁br	-376
▁fi	-377
▁sc	-378
ergy	-379
ized	-380
▁but	-381
▁dec	-382
▁fre	-383
▁spe	-384
▁does	-385
▁each	-386
▁lead	-387
▁based	-388
▁invol	-389
▁produ	-390
▁water	-391
▁energy	-392
▁object	-393
▁allowing	-394
▁different	-395
).	-396
SS	-397
so	-398
ase	-399
ath	-400
ogn	-401
ond	-402
pos	-403
ric	-404
▁In	-405
▁dr	-406
▁sh	-407
fore	-408
gram	-409
ures	-410
▁its	-411
▁tim	-412
▁val	-413
0.95)	-414
▁also	-415
▁full	-416
▁more	-417
=0.95)	-418
▁indic	-419
▁develop	-420
▁various	-421
▁learning	-422
▁provided	-423
▁specific	-424
▁developer	-425
▁applications	-426
cc	-427
uc	-428
▁G	-429
als	-430
and	-431
ens	-432
ide	-433
isc	-434
osp	-435
uct	-436
▁ab	-437
▁bl	-438
▁no	-439
▁ty	-440
aves	-441
ines	-442
ocol	-443
▁how	-444
▁occ	-445
▁use	-446
ement	-447
ident	-448
ility	-449
onsin	-450
quest	-451
stack	-452
▁grav	-453
▁high	-454
▁over	-455
▁prim	-456
▁than	-457
▁this	-458
▁about	-459
▁level	-460
▁speed	-461
hemical	-462
ryption	-463
▁causes	-464
isconsin	-465
▁objects	-466
▁request	-467
▁respons	-468
▁Therefore	-469
ff	-470
hy	-471
abl	-472
ars	-473
ave	-474
ode	-475
ides	-476
king	-477
ming	-478
plan	-479
rust	-480
tain	-481
▁cal	-482
▁due	-483
▁loc	-484
▁sec	-485
▁tem	-486
under	-487
▁conf	-488
▁main	-489
▁role	-490
elance	-491
etwork	-492
▁gener	-493
▁mater	-494
▁other	-495
ddition	-496
▁includ	-497
gramming	-498
▁devices	-499
▁magnetic	-500
▁material	-501
▁computers	-502
op	-503
▁H	-504
▁S	-505
▁k	-506
ace	-507
arb	-508
ets	-509
gth	-510
ift	-511
ile	-512
ize	-513
pro	-514
▁bo	-515
▁ma	-516
leep	-517
like	-518
mosp	-519
ream	-520
ural	-521
▁alg	-522
▁met	-523
▁mov	-524
▁reg	-525
▁sun	-526
▁sur	-527
▁two	-528
▁typ	-529
arily	-530
light	-531
uring	-532
▁When	-533
▁inde	-534
action	-535
ucture	-536
▁occur	-537
▁stack	-538
▁atmosp	-539
▁record	-540
▁changes	-541
▁network	-542
▁without	-543
▁Addition	-544
▁chemical	-545
▁electric	-546
▁function	-547
▁involves	-548
▁electrons	-549
▁primarily	-550
▁structure	-551
▁Additionally	-552
Yo	-553
ck	-554
te	-555
wa	-556
▁D	-557
▁R	-558
arg	-559
eld	-560
erm	-561
ock	-562
angu	-563
ceiv	-564
ents	-565
etic	-566
oles	-567
olid	-568
ress	-569
▁det	-570
▁man	-571
antum	-572
echan	-573
orage	-574
▁Over	-575
▁flow	-576
▁have	-577
▁long	-578
▁reli	-579
ential	-580
▁brain	-581
▁field	-582
▁ident	-583
▁index	-584
▁input	-585
▁sleep	-586
▁techn	-587
▁while	-588
ability	-589
actions	-590
▁asking	-591
▁mechan	-592
▁partic	-593
▁receiv	-594
▁identif	-595
▁perform	-596
▁signals	-597
▁location	-598
▁protocol	-599
▁Wisconsin	-600
▁atmosphere	-601
▁development	-602
▁programming	-603
CP	-604
RT	-605
ap	-606
ft	-607
lo	-608
mm	-609
up	-610
▁C	-611
Che	-612
ast	-613
can	-614
enc	-615
esc	-616
ire	-617
lue	-618
ser	-619
ues	-620
yth	-621
▁em	-622
▁ev	-623
ange	-624
ftwa	-625
ince	-626
mune	-627
ucle	-628
▁TCP	-629
▁act	-630
▁cur	-631
▁eff	-632
▁mod	-633
▁pre	-634
▁ser	-635
▁vol	-636
Check	-637
abase	-638
ology	-639
orith	-640
perat	-641
stand	-642
ython	-643
▁mach	-644
▁need	-645
▁pass	-646
▁pull	-647
▁time	-648
▁when	-649
Ground	-650
ftware	-651
▁langu	-652
▁sound	-653
▁value	-654
lection	-655
▁change	-656
▁conver	-657
▁immune	-658
▁transm	-659
▁travel	-660
▁Overall	-661
▁airplan	-662
▁consist	-663
▁contain	-664
▁current	-665
▁genetic	-666
▁storage	-667
▁systems	-668
▁algorith	-669
▁database	-670
▁movement	-671
▁projects	-672
▁software	-673
▁temperat	-674
▁freelance	-675
▁processes	-676
GroundCheck	-677
▁connection	-678
▁encryption	-679
▁processing	-680
TP	-681
lp	-682
▁N	-683
▁y	-684
SSE	-685
TTP	-686
ard	-687
cul	-688
gan	-689
her	-690
hod	-691
ics	-692
iqu	-693
lor	-694
nds	-695
oms	-696
por	-697
rib	-698
rol	-699
vis	-700
▁ag	-701
▁co	-702
▁me	-703
▁sk	-704
ible	-705
iles	-706
onic	-707
pend	-708
quid	-709
ting	-710
uter	-711
ving	-712
▁ano	-713
▁aut	-714
▁bec	-715
▁def	-716
▁out	-717
▁ref	-718
▁sim	-719
▁sug	-720
aking	-721
ament	-722
ength	-723
itive	-724
ution	-725
▁They	-726
▁coll	-727
▁fund	-728
▁help	-729
▁mass	-730
▁vary	-731
ically	-732
▁black	-733
▁chlor	-734
▁decis	-735
▁dream	-736
▁enabl	-737
▁files	-738
▁organ	-739
▁wavel	-740
amental	-741
ational	-742
▁Python	-743
▁access	-744
▁called	-745
▁colors	-746
▁determ	-747
▁format	-748
▁liquid	-749
▁method	-750
▁result	-751
▁router	-752
▁weight	-753
standing	-754
▁electro	-755
▁include	-756
▁leading	-757
▁quantum	-758
▁including	-759
▁lightning	-760
▁wavelength	-761
▁fundamental	-762
DP	-763
PI	-764
PS	-765
ci	-766
ia	-767
ma	-768
ns	-769
ub	-770
▁B	-771
▁M	-772
Why	-773
acc	-774
els	-775
hes	-776
ibr	-777
ict	-778
ied	-779
ink	-780
ise	-781
ism	-782
les	-783
not	-784
ole	-785
own	-786
ten	-787
▁AI	-788
▁ad	-789
▁er	-790
▁fo	-791
▁lo	-792
=0.9	-793
ages	-794
agma	-795
akes	-796
ases	-797
avor	-798
ceed	-799
cept	-800
face	-801
ient	-802
iple	-803
ique	-804
isms	-805
ives	-806
mmet	-807
plex	-808
uman	-809
▁API	-810
▁UDP	-811
▁all	-812
▁bod	-813
▁ens	-814
▁ess	-815
▁inf	-816
▁not	-817
▁rep	-818
▁sat	-819
▁sky	-820
aries	-821
feren	-822
icate	-823
ments	-824
vised	-825
▁0.95	-826
▁attr	-827
▁blue	-828
▁cogn	-829
▁comm	-830
▁drag	-831
▁emot	-832
▁expl	-833
▁hash	-834
▁make	-835
▁moon	-836
▁mult	-837
▁pack	-838
▁rele	-839
▁same	-840
▁tect	-841
▁them	-842
▁vibr	-843
arbage	-844
idence	-845
▁Since	-846
▁bound	-847
▁charg	-848
▁favor	-849
▁force	-850
▁human	-851
▁magma	-852
▁nucle	-853
▁sends	-854
▁there	-855
▁types	-856
▁waves	-857
istance	-858
mmetric	-859
ulation	-860
▁agents	-861
▁allows	-862
▁batter	-863
▁cannot	-864
▁caused	-865
▁commun	-866
▁during	-867
▁exceed	-868
▁gravit	-869
▁longer	-870
▁plates	-871
▁recogn	-872
▁satell	-873
▁second	-874
▁unique	-875
▁volcan	-876
ological	-877
pervised	-878
volution	-879
▁complex	-880
▁control	-881
▁gravity	-882
▁machine	-883
▁methods	-884
▁produce	-885
▁records	-886
▁referen	-887
▁travels	-888
▁working	-889
▁airplane	-890
▁creating	-891
▁indicate	-892
▁language	-893
▁multiple	-894
▁tectonic	-895
▁transmit	-896
▁particles	-897
▁confidence	-898
▁technology	-899
▁communicate	-900
▁reliability	-901
▁wavelengths	-902
00	-903
8)	-904
be	-905
iF	-906
ie	-907
io	-908
ks	-909
ll	-910
ss	-911
xt	-912
yn	-913
0.8	-914
anc	-915
ene	-916
ery	-917
gen	-918
hot	-919
hys	-920
ice	-921
ill	-922
ind	-923
iss	-924
oes	-925
ome	-926
ose	-927
ted	-928
tes	-929
ual	-930
uld	-931
▁ar	-932
▁kn	-933
▁op	-934
▁sm	-935
▁up	-936
=0.8	-937
Your	-938
ause	-939
cipl	-940
ense	-941
entr	-942
hyll	-943
ibut	-944
kely	-945
nder	-946
odes	-947
▁Pro	-948
▁cer	-949
▁ent	-950
▁fas	-951
▁flo	-952
▁ice	-953
▁may	-954
▁nat	-955
▁new	-956
▁pos	-957
▁sub	-958
▁tas	-959
acter	-960
athog	-961
ively	-962
ories	-963
urons	-964
▁HTTP	-965
▁appe	-966
▁bene	-967
▁conc	-968
▁desc	-969
▁even	-970
▁free	-971
▁lift	-972
▁oper	-973
▁phys	-974
▁pred	-975
▁prin	-976
▁stat	-977
▁uses	-978
=0.88)	-979
arthqu	-980
ciples	-981
ctions	-982
ersion	-983
ophyll	-984
orized	-985
tribut	-986
▁0.95,	-987
▁These	-988
▁Under	-989
▁along	-990
▁being	-991
▁block	-992
▁bytes	-993
▁color	-994
▁crust	-995
▁defin	-996
▁helps	-997
▁obser	-998
▁oppos	-999
▁poles	-1000
▁quick	-1001
▁solid	-1002
▁stars	-1003
▁table	-1004
▁tides	-1005
▁train	-1006
▁twink	-1007
accines	-1008
achable	-1009
ictions	-1010
▁depend	-1011
▁effect	-1012
▁faster	-1013
▁likely	-1014
▁output	-1015
▁pathog	-1016
▁thrust	-1017
▁values	-1018
romagnet	-1019
▁battery	-1020
▁because	-1021
▁beneath	-1022
▁certain	-1023
▁describ	-1024
▁factors	-1025
▁thunder	-1026
▁differen	-1027
▁favorite	-1028
▁receiver	-1029
▁surround	-1030
▁essential	-1031
▁functions	-1032
▁generated	-1033
▁materials	-1034
▁resulting	-1035
▁algorithms	-1036
▁boundaries	-1037
▁collection	-1038
▁electrical	-1039
▁principles	-1040
▁chlorophyll	-1041
▁functioning	-1042
▁predictions	-1043
▁responsible	-1044
▁Understanding	-1045
▁gravitational	-1046
2)	-1047
AM	-1048
DD	-1049
NA	-1050
aw	-1051
cu	-1052
ge	-1053
ok	-1054
ou	-1055
sp	-1056
ve	-1057
we	-1058
xy	-1059
▁1	-1060
▁L	-1061
CRT	-1062
SSD	-1063
You	-1064
abe	-1065
ape	-1066
apt	-1067
ats	-1068
aut	-1069
ble	-1070
ced	-1071
edi	-1072
iFi	-1073
ild	-1074
ins	-1075
int	-1076
oci	-1077
row	-1078
ruc	-1079
sis	-1080
umn	-1081
ved	-1082
▁As	-1083
▁bi	-1084
▁bu	-1085
▁fe	-1086
▁if	-1087
▁my	-1088
Howe	-1089
alth	-1090
ants	-1091
bits	-1092
ells	-1093
gest	-1094
inal	-1095
ircu	-1096
ired	-1097
iron	-1098
ital	-1099
ites	-1100
ivid	-1101
less	-1102
lude	-1103
orth	-1104
osyn	-1105
ould	-1106
ower	-1107
pans	-1108
peri	-1109
resp	-1110
ross	-1111
soci	-1112
ward	-1113
▁GPS	-1114
▁acc	-1115
▁bre	-1116
▁cli	-1117
▁del	-1118
▁dom	-1119
▁fut	-1120
▁lay	-1121
▁mot	-1122
▁one	-1123
▁pig	-1124
▁red	-1125
▁ris	-1126
▁rot	-1127
▁sto	-1128
▁vir	-1129
▁way	-1130
▁you	-1131
ately	-1132
edium	-1133
ented	-1134
igned	-1135
ining	-1136
ivers	-1137
orter	-1138
ously	-1139
pared	-1140
posit	-1141
ually	-1142
▁Each	-1143
▁Howe	-1144
▁bits	-1145
▁body	-1146
▁cruc	-1147
▁dens	-1148
▁dire	-1149
▁find	-1150
▁hole	-1151
▁isol	-1152
▁less	-1153
▁live	-1154
▁made	-1155
▁must	-1156
▁prev	-1157
▁sens	-1158
▁slow	-1159
▁then	-1160
▁what	-1161
▁will	-1162
=0.92)	-1163
abeled	-1164
alized	-1165
anches	-1166
encies	-1167
ission	-1168
plicit	-1169
thesis	-1170
weight	-1171
▁atoms	-1172
▁build	-1173
▁cells	-1174
▁circu	-1175
▁holes	-1176
▁impro	-1177
▁influ	-1178
▁learn	-1179
▁often	-1180
▁parts	-1181
▁plate	-1182
▁press	-1183
▁small	-1184
▁space	-1185
▁stren	-1186
▁tasks	-1187
▁under	-1188
atterns	-1189
horized	-1190
hotosyn	-1191
ization	-1192
pansion	-1193
▁across	-1194
▁around	-1195
▁associ	-1196
▁autumn	-1197
▁calcul	-1198
▁client	-1199
▁contin	-1200
▁drives	-1201
▁experi	-1202
▁future	-1203
▁health	-1204
▁layers	-1205
▁making	-1206
▁medium	-1207
▁models	-1208
▁neural	-1209
▁occurs	-1210
▁proble	-1211
▁server	-1212
▁should	-1213
▁stress	-1214
▁transf	-1215
attering	-1216
resented	-1217
▁However	-1218
▁another	-1219
▁attract	-1220
▁created	-1221
▁crucial	-1222
▁ensures	-1223
▁exceeds	-1224
▁magnets	-1225
▁natural	-1226
▁neurons	-1227
▁overall	-1228
▁packets	-1229
▁regions	-1230
▁reposit	-1231
▁shorter	-1232
▁suggest	-1233
▁surface	-1234
▁twinkle	-1235
▁univers	-1236
upervised	-1237
▁compared	-1238
▁conclude	-1239
▁consists	-1240
▁consolid	-1241
▁enabling	-1242
▁explicit	-1243
▁identify	-1244
▁includes	-1245
▁interact	-1246
▁internet	-1247
▁networks	-1248
▁opposite	-1249
▁patterns	-1250
▁pressure	-1251
▁produces	-1252
▁response	-1253
▁rotation	-1254
▁sunlight	-1255
▁training	-1256
arthquakes	-1257
entralized	-1258
▁cognitive	-1259
▁computing	-1260
▁decisions	-1261
▁described	-1262
▁determine	-1263
▁evolution	-1264
▁expansion	-1265
▁reactions	-1266
▁typically	-1267
▁associated	-1268
▁containers	-1269
▁definition	-1270
▁operations	-1271
▁resistance	-1272
▁satellites	-1273
▁scattering	-1274
▁surrounding	-1275
▁temperature	-1276
hotosynthesis	-1277
▁temperatures	-1278
ET	-1279
ax	-1280
js	-1281
ne	-1282
ud	-1283
wh	-1284
▁+	-1285
▁3	-1286
▁6	-1287
aks	-1288
ane	-1289
arr	-1290
ays	-1291
bit	-1292
der	-1293
egr	-1294
eps	-1295
ern	-1296
fre	-1297
ges	-1298
gre	-1299
ife	-1300
ior	-1301
itu	-1302
lic	-1303
ont	-1304
par	-1305
set	-1306
upt	-1307
xim	-1308
▁At	-1309
▁Ne	-1310
▁cl	-1311
▁fr	-1312
▁po	-1313
▁wr	-1314
adio	-1315
ains	-1316
aits	-1317
aken	-1318
alax	-1319
apid	-1320
arly	-1321
duct	-1322
eact	-1323
erms	-1324
ings	-1325
lear	-1326
lyte	-1327
msel	-1328
ness	-1329
pert	-1330
renc	-1331
ring	-1332
uses	-1333
vant	-1334
vers	-1335
word	-1336
▁CRT	-1337
▁Dat	-1338
▁RAM	-1339
▁adj	-1340
▁aff	-1341
▁asy	-1342
▁cor	-1343
▁des	-1344
▁dig	-1345
▁dis	-1346
▁eng	-1347
▁enh	-1348
▁env	-1349
▁err	-1350
▁esc	-1351
▁est	-1352
▁fac	-1353
▁fly	-1354
▁gre	-1355
▁hig	-1356
▁law	-1357
▁pot	-1358
▁run	-1359
▁set	-1360
▁uns	-1361
▁via	-1362
▁web	-1363
▁why	-1364
▁wid	-1365
▁yel	-1366
ablis	-1367
anets	-1368
cepts	-1369
chain	-1370
ected	-1371
ences	-1372
ently	-1373
grees	-1374
ities	-1375
itude	-1376
ivate	-1377
ivery	-1378
lecul	-1379
produ	-1380
redib	-1381
rogen	-1382
tered	-1383
tocol	-1384
ublic	-1385
veral	-1386
which	-1387
▁Node	-1388
▁atom	-1389
▁back	-1390
▁carr	-1391
▁cath	-1392
▁comb	-1393
▁dise	-1394
▁exch	-1395
▁fast	-1396
▁file	-1397
▁four	-1398
▁gene	-1399
▁hard	-1400
▁hear	-1401
▁keys	-1402
▁larg	-1403
▁lobe	-1404
▁many	-1405
▁mean	-1406
▁ment	-1407
▁pers	-1408
▁prop	-1409
▁read	-1410
▁reas	-1411
▁retr	-1412
▁size	-1413
▁some	-1414
▁star	-1415
▁well	-1416
agnets	-1417
atures	-1418
estion	-1419
istant	-1420
making	-1421
parent	-1422
proxim	-1423
ravity	-1424
ricity	-1425
ularly	-1426
ultane	-1427
▁Atoms	-1428
▁anode	-1429
▁apart	-1430
▁class	-1431
▁clear	-1432
▁contr	-1433
▁drift	-1434
▁effic	-1435
▁erupt	-1436
▁exact	-1437
▁exist	-1438
▁freez	-1439
▁galax	-1440
▁gases	-1441
▁known	-1442
▁orbit	-1443
▁order	-1444
▁plays	-1445
▁point	-1446
▁power	-1447
▁radio	-1448
▁repel	-1449
▁rises	-1450
▁store	-1451
▁super	-1452
▁terms	-1453
▁those	-1454
▁track	-1455
▁unaut	-1456
▁wings	-1457
▁write	-1458
Version	-1459
acteria	-1460
idently	-1461
mselves	-1462
▁collap	-1463
▁common	-1464
▁direct	-1465
▁dreams	-1466
▁escape	-1467
▁flight	-1468
▁forces	-1469
▁ground	-1470
▁higher	-1471
▁integr	-1472
▁leaves	-1473
▁levels	-1474
▁matter	-1475
▁orange	-1476
▁passes	-1477
▁qubits	-1478
▁signal	-1479
▁slower	-1480
▁solids	-1481
▁specif	-1482
▁stored	-1483
▁strong	-1484
▁tempor	-1485
▁toward	-1486
▁traits	-1487
▁widely	-1488
▁yellow	-1489
Vaccines	-1490
tributed	-1491
weighted	-1492
▁appears	-1493
▁cathode	-1494
▁charges	-1495
▁convert	-1496
▁degrees	-1497
▁digital	-1498
▁emotion	-1499
▁enables	-1500
▁enhance	-1501
▁environ	-1502
▁garbage	-1503
▁liquids	-1504
▁mention	-1505
▁molecul	-1506
▁nucleot	-1507
▁nucleus	-1508
▁planets	-1509
▁prevent	-1510
▁private	-1511
▁propert	-1512
▁protons	-1513
▁reprodu	-1514
▁respond	-1515
▁several	-1516
▁species	-1517
Wisconsin	-1518
erization	-1519
freelance	-1520
▁Protocol	-1521
▁approxim	-1522
▁bacteria	-1523
▁branches	-1524
▁building	-1525
▁concepts	-1526
▁decision	-1527
▁delivery	-1528
▁emotions	-1529
▁exchange	-1530
▁galaxies	-1531
▁influenc	-1532
▁maintain	-1533
▁password	-1534
▁pathogen	-1535
▁pigments	-1536
▁position	-1537
▁question	-1538
▁reaction	-1539
▁reliable	-1540
▁strength	-1541
▁universe	-1542
▁volcanic	-1543
lectricity	-1544
romagnetic	-1545
▁algorithm	-1546
▁classical	-1547
▁eruptions	-1548
▁formation	-1549
▁indicates	-1550
▁mechanics	-1551
▁organisms	-1552
▁organized	-1553
▁potential	-1554
▁protocols	-1555
▁reachable	-1556
▁recognize	-1557
▁responses	-1558
▁selection	-1559
▁simultane	-1560
▁symmetric	-1561
▁volcanoes	-1562
▁asymmetric	-1563
▁biological	-1564
▁converting	-1565
▁identified	-1566
▁indicating	-1567
▁mechanisms	-1568
▁references	-1569
▁themselves	-1570
▁confidently	-1571
▁differences	-1572
▁distributed	-1573
▁electricity	-1574
▁electrolyte	-1575
▁identifying	-1576
▁interaction	-1577
▁performance	-1578
▁recognition	-1579
▁calculations	-1580
▁particularly	-1581
▁transactions	-1582
▁unauthorized	-1583
▁unsupervised	-1584
▁approximately	-1585
▁simultaneously	-1586
,7	-1587
.,	-1588
0)	-1589
12	-1590
2.	-1591
29	-1592
92	-1593
An	-1594
Bl	-1595
EE	-1596
EM	-1597
En	-1598
ID	-1599
Ke	-1600
Le	-1601
OS	-1602
Qu	-1603
So	-1604
St	-1605
Th	-1606
To	-1607
We	-1608
ae	-1609
dg	-1610
km	-1611
la	-1612
sw	-1613
sy	-1614
tc	-1615
wn	-1616
wt	-1617
▁"	-1618
▁'	-1619
▁F	-1620
,00	-1621
299	-1622
Com	-1623
Con	-1624
DDs	-1625
DNA	-1626
Enc	-1627
GPS	-1628
HDD	-1629
Ice	-1630
Key	-1631
OST	-1632
Vol	-1633
acu	-1634
ail	-1635
air	-1636
akd	-1637
aro	-1638
bal	-1639
ber	-1640
bul	-1641
cle	-1642
con	-1643
des	-1644
end	-1645
esp	-1646
ext	-1647
ids	-1648
iev	-1649
iox	-1650
ius	-1651
lix	-1652
luc	-1653
man	-1654
min	-1655
ocy	-1656
olt	-1657
one	-1658
opl	-1659
ops	-1660
ost	-1661
ots	-1662
oun	-1663
oxy	-1664
ply	-1665
pon	-1666
sol	-1667
str	-1668
til	-1669
uar	-1670
utr	-1671
way	-1672
xed	-1673
▁(0	-1674
▁An	-1675
▁Ap	-1676
▁On	-1677
▁Un	-1678
▁am	-1679
▁go	-1680
▁hy	-1681
▁ph	-1682
▁sl	-1683
▁ut	-1684
,000	-1685
,792	-1686
HTTP	-1687
SSDs	-1688
SSID	-1689
WiFi	-1690
aged	-1691
amed	-1692
ands	-1693
ansm	-1694
ante	-1695
arby	-1696
arse	-1697
ased	-1698
asts	-1699
ayle	-1700
cend	-1701
chit	-1702
dden	-1703
dger	-1704
ects	-1705
enon	-1706
ered	-1707
erge	-1708
hate	-1709
head	-1710
iang	-1711
ider	-1712
igur	-1713
ilit	-1714
iliz	-1715
ilom	-1716
laim	-1717
mass	-1718
ockw	-1719
oded	-1720
oids	-1721
omat	-1722
onse	-1723
otsp	-1724
outh	-1725
pair	-1726
pare	-1727
pect	-1728
port	-1729
ract	-1730
rics	-1731
ryst	-1732
sing	-1733
size	-1734
stan	-1735
swer	-1736
sych	-1737
tage	-1738
text	-1739
tual	-1740
uals	-1741
uble	-1742
ules	-1743
wton	-1744
▁299	-1745
▁DNA	-1746
▁GET	-1747
▁Git	-1748
▁Key	-1749
▁REM	-1750
▁add	-1751
▁art	-1752
▁bal	-1753
▁beh	-1754
▁bin	-1755
▁bul	-1756
▁div	-1757
▁ele	-1758
▁equ	-1759
▁esp	-1760
▁etc	-1761
▁ext	-1762
▁far	-1763
▁fer	-1764
▁liv	-1765
▁mob	-1766
▁mut	-1767
▁net	-1768
▁nit	-1769
▁num	-1770
▁oce	-1771
▁our	-1772
▁own	-1773
▁oxy	-1774
▁pop	-1775
▁ret	-1776
▁see	-1777
▁sup	-1778
▁tur	-1779
▁unl	-1780
▁vis	-1781
▁was	-1782
▁who	-1783
Block	-1784
Sound	-1785
Stars	-1786
Tides	-1787
Where	-1788
acing	-1789
activ	-1790
acuum	-1791
agate	-1792
allen	-1793
anins	-1794
arbon	-1795
asets	-1796
ative	-1797
being	-1798
ecial	-1799
ellig	-1800
eping	-1801
erges	-1802
ernel	-1803
erred	-1804
eters	-1805
henom	-1806
ieval	-1807
iness	-1808
iorit	-1809
ismic	-1810
itary	-1811
ither	-1812
ivity	-1813
lobal	-1814
ordin	-1815
oring	-1816
orpor	-1817
posed	-1818
rency	-1819
ribon	-1820
rowth	-1821
stant	-1822
state	-1823
thing	-1824
thocy	-1825
urity	-1826
worth	-1827
▁APIs	-1828
▁Cels	-1829
▁Data	-1830
▁HDDs	-1831
▁Lift	-1832
▁POST	-1833
▁SSDs	-1834
▁WiFi	-1835
▁acid	-1836
▁away	-1837
▁bolt	-1838
▁book	-1839
▁both	-1840
▁brow	-1841
▁capt	-1842
▁caro	-1843
▁cent	-1844
▁char	-1845
▁code	-1846
▁coun	-1847
▁diox	-1848
▁exec	-1849
▁expa	-1850
▁fall	-1851
▁gluc	-1852
▁guar	-1853
▁host	-1854
▁insp	-1855
▁know	-1856
▁life	-1857
▁list	-1858
▁look	-1859
▁mess	-1860
▁most	-1861
▁move	-1862
▁only	-1863
▁orig	-1864
▁pair	-1865
▁rehe	-1866
▁root	-1867
▁scan	-1868
▁scat	-1869
▁stri	-1870
▁summ	-1871
▁term	-1872
▁tide	-1873
▁type	-1874
▁unit	-1875
▁unre	-1876
▁wire	-1877
=0.90)	-1878
Comput	-1879
Leaves	-1880
Volcan	-1881
achine	-1882
akdown	-1883
akened	-1884
alline	-1885
angled	-1886
ecture	-1887
elling	-1888
iented	-1889
ivided	-1890
lector	-1891
manent	-1892
nected	-1893
onding	-1894
struct	-1895
ucleic	-1896
utrons	-1897
▁Inter	-1898
▁Rayle	-1899
▁React	-1900
▁accum	-1901
▁accur	-1902
▁algae	-1903
▁areas	-1904
▁bases	-1905
▁cause	-1906
▁chain	-1907
▁coded	-1908
▁codes	-1909
▁crypt	-1910
▁cryst	-1911
▁dense	-1912
▁deoxy	-1913
▁domin	-1914
▁error	-1915
▁event	-1916
▁fight	-1917
▁fixed	-1918
▁float	-1919
▁found	-1920
▁front	-1921
▁gover	-1922
▁green	-1923
▁helix	-1924
▁hered	-1925
▁hotsp	-1926
▁image	-1927
▁imple	-1928
▁incre	-1929
▁keeps	-1930
▁kilom	-1931
▁large	-1932
▁leaks	-1933
▁might	-1934
▁model	-1935
▁motor	-1936
▁named	-1937
▁nodes	-1938
▁north	-1939
▁phosp	-1940
▁plant	-1941
▁psych	-1942
▁pulls	-1943
▁range	-1944
▁rapid	-1945
▁rules	-1946
▁sense	-1947
▁separ	-1948
▁since	-1949
▁slide	-1950
▁south	-1951
▁sugar	-1952
▁takes	-1953
▁times	-1954
▁until	-1955
Contain	-1956
Garbage	-1957
Gravity	-1958
Quantum	-1959
Thunder	-1960
ception	-1961
ecially	-1962
ificant	-1963
ificial	-1964
istered	-1965
istical	-1966
massive	-1967
ockwave	-1968
ologies	-1969
oplasts	-1970
parency	-1971
pertext	-1972
ponents	-1973
reaming	-1974
solving	-1975
stances	-1976
tenoids	-1977
ulating	-1978
▁Applic	-1979
▁Newton	-1980
▁Unlike	-1981
▁acting	-1982
▁action	-1983
▁answer	-1984
▁appear	-1985
▁archit	-1986
▁ascend	-1987
▁become	-1988
▁binary	-1989
▁blocks	-1990
▁bright	-1991
▁carbon	-1992
▁charge	-1993
▁collis	-1994
▁create	-1995
▁credib	-1996
▁double	-1997
▁encode	-1998
▁entire	-1999
▁explan	-2000
▁explos	-2001
▁fields	-2002
▁floats	-2003
▁growth	-2004
▁kernel	-2005
▁ledger	-2006
▁living	-2007
▁manage	-2008
▁merges	-2009
▁motion	-2010
▁nearby	-2011
▁needed	-2012
▁number	-2013
▁oceans	-2014
▁oxygen	-2015
▁phenom	-2016
▁plants	-2017
▁public	-2018
▁reason	-2019
▁refers	-2020
▁region	-2021
▁repair	-2022
▁scient	-2023
▁secure	-2024
▁speech	-2025
▁states	-2026
▁status	-2027
▁string	-2028
▁subset	-2029
▁sudden	-2030
▁theory	-2031
▁timing	-2032
▁triang	-2033
▁turbul	-2034
▁utiliz	-2035
▁vacuum	-2036
allenges	-2037
chemical	-2038
ilitates	-2039
ioritize	-2040
ividuals	-2041
oriented	-2042
response	-2043
rogenous	-2044
ulations	-2045
▁299,792	-2046
▁Celsius	-2047
▁Magnets	-2048
▁aligned	-2049
▁anthocy	-2050
▁automat	-2051
▁carried	-2052
▁causing	-2053
▁centers	-2054
▁circuit	-2055
▁commits	-2056
▁compute	-2057
▁conduct	-2058
▁context	-2059
▁continu	-2060
▁coordin	-2061
▁corresp	-2062
▁creates	-2063
▁density	-2064
▁dioxide	-2065
▁disease	-2066
▁divided	-2067
▁domains	-2068
▁encrypt	-2069
▁engines	-2070
▁explain	-2071
▁forming	-2072
▁freezes	-2073
▁general	-2074
▁glucose	-2075
▁inactiv	-2076
▁labeled	-2077
▁massive	-2078
▁meaning	-2079
▁metrics	-2080
▁nothing	-2081
▁physics	-2082
▁prepare	-2083
▁primary	-2084
▁problem	-2085
▁program	-2086
▁provide	-2087
▁quickly	-2088
▁reclaim	-2089
▁reflect	-2090
▁refract	-2091
▁release	-2092
▁seismic	-2093
▁sensory	-2094
▁stating	-2095
▁towards	-2096
▁tracing	-2097
▁usually	-2098
▁varying	-2099
▁version	-2100
▁vibrant	-2101
▁virtual	-2102
▁viruses	-2103
▁voltage	-2104
Computers	-2105
Evolution	-2106
Volcanoes	-2107
connected	-2108
elligence	-2109
▁Rayleigh	-2110
▁affected	-2111
▁apparent	-2112
▁captures	-2113
▁circuits	-2114
▁commonly	-2115
▁configur	-2116
▁connects	-2117
▁consider	-2118
▁constant	-2119
▁counting	-2120
▁datasets	-2121
▁designed	-2122
▁directly	-2123
▁distance	-2124
▁ensuring	-2125
▁establis	-2126
▁features	-2127
▁guarante	-2128
▁hotspots	-2129
▁incorpor	-2130
▁inspired	-2131
▁involved	-2132
▁isolated	-2133
▁memories	-2134
▁mutation	-2135
▁neutrons	-2136
▁original	-2137
▁overhead	-2138
▁perspect	-2139
▁physical	-2140
▁problems	-2141
▁provides	-2142
▁received	-2143
▁rehearse	-2144
▁relevant	-2145
▁requests	-2146
▁security	-2147
▁services	-2148
▁smallest	-2149
▁suggests	-2150
▁terminal	-2151
▁tracking	-2152
▁transfer	-2153
▁vaccines	-2154
▁weakened	-2155
▁wireless	-2156
Blockchain	-2157
Encryption	-2158
ansmission	-2159
worthiness	-2160
▁Interface	-2161
▁airplanes	-2162
▁breakdown	-2163
▁character	-2164
▁cognition	-2165
▁collector	-2166
▁combining	-2167
▁connected	-2168
▁contribut	-2169
▁densities	-2170
▁depending	-2171
▁efficient	-2172
▁emotional	-2173
▁entangled	-2174
▁implement	-2175
▁improving	-2176
▁integrity	-2177
▁involving	-2178
▁isolation	-2179
▁languages	-2180
▁mentioned	-2181
▁molecules	-2182
▁observers	-2183
▁occurring	-2184
▁pathogens	-2185
▁permanent	-2186
▁phosphate	-2187
▁presented	-2188
▁propagate	-2189
▁reference	-2190
▁requested	-2191
▁resistant	-2192
▁retrieval	-2193
▁satellite	-2194
▁scattered	-2195
▁secondary	-2196
▁sensitive	-2197
▁shockwave	-2198
▁temporary	-2199
▁transfers	-2200
▁unlabeled	-2201
Earthquakes	-2202
Electricity	-2203
ribonucleic	-2204
romagnetism	-2205
▁artificial	-2206
▁attraction	-2207
▁brightness	-2208
▁challenges	-2209
▁components	-2210
▁decryption	-2211
▁developers	-2212
▁difference	-2213
▁electrodes	-2214
▁especially	-2215
▁experience	-2216
▁hereditary	-2217
▁identifies	-2218
▁kilometers	-2219
▁mechanical	-2220
▁perception	-2221
▁phenomenon	-2222
▁prioritize	-2223
▁production	-2224
▁properties	-2225
▁regulation	-2226
▁repository	-2227
▁scientific	-2228
▁substances	-2229
▁supervised	-2230
▁vibrations	-2231
▁Application	-2232
▁Programming	-2233
▁carotenoids	-2234
▁centralized	-2235
▁computation	-2236
▁contraction	-2237
▁credibility	-2238
▁crystalline	-2239
▁earthquakes	-2240
▁experiences	-2241
▁explanation	-2242
▁facilitates	-2243
▁inactivated	-2244
▁individuals	-2245
▁influencing	-2246
▁nitrogenous	-2247
▁nucleotides	-2248
▁represented	-2249
▁significant	-2250
▁statistical	-2251
▁transmitted	-2252
▁unreachable	-2253
▁accumulation	-2254
▁anthocyanins	-2255
▁architecture	-2256
▁chloroplasts	-2257
▁consistently	-2258
▁coordination	-2259
▁dependencies	-2260
▁environments	-2261
▁evolutionary	-2262
▁intelligence	-2263
▁interactions	-2264
▁repositories	-2265
▁reproduction	-2266
▁specifically	-2267
▁supermassive	-2268
▁technologies	-2269
▁transmission	-2270
▁transparency	-2271
▁computational	-2272
▁consolidation	-2273
▁corresponding	-2274
▁decentralized	-2275
▁ferromagnetic	-2276
▁understanding	-2277
▁connectionless	-2278
▁interconnected	-2279
▁photosynthesis	-2280
Containerization	-2281
▁electrochemical	-2282
▁trustworthiness	-2283
'.	-2284
,"	-2285
1.	-2286
16	-2287
65	-2288
80	-2289
?"	-2290
AT	-2291
CO	-2292
EL	-2293
IP	-2294
NS	-2295
PD	-2296
UT	-2297
ah	-2298
co	-2299
#,	-2300
')	-2301
43	-2302
Tr	-2303
fo	-2304
hm	-2305
ii	-2306
ip	-2307
mb	-2308
mo	-2309
ov	-2310
oy	-2311
ph	-2312
ps	-2313
sm	-2314
ta	-2315
uv	-2316
vo	-2317
ye	-2318
▁0	-2319
▁4	-2320
▁J	-2321
▁Q	-2322
▁→	-2323
,12	-2324
,65	-2325
.),	-2326
2.1	-2327
Air	-2328
EEE	-2329
ERT	-2330
ETE	-2331
RAM	-2332
Say	-2333
Who	-2334
ady	-2335
agr	-2336
ake	-2337
amp	-2338
app	-2339
arc	-2340
are	-2341
ash	-2342
ava	-2343
awa	-2344
che	-2345
cks	-2346
dit	-2347
due	-2348
ein	-2349
elf	-2350
ems	-2351
eni	-2352
ety	-2353
fer	-2354
fic	-2355
hed	-2356
hib	-2357
iec	-2358
ify	-2359
ily	-2360
ims	-2361
iod	-2362
ird	-2363
ked	-2364
kes	-2365
lat	-2366
mut	-2367
ned	-2368
neg	-2369
ner	-2370
ogr	-2371
oli	-2372
ols	-2373
opy	-2374
ort	-2375
oth	-2376
our	-2377
pic	-2378
rel	-2379
rem	-2380
rim	-2381
rop	-2382
ros	-2383
ses	-2384
tim	-2385
try	-2386
uch	-2387
urn	-2388
▁30	-2389
▁80	-2390
▁Bl	-2391
▁Br	-2392
▁By	-2393
▁De	-2394
▁Hy	-2395
▁ID	-2396
▁St	-2397
▁Sy	-2398
▁Tr	-2399
ATE	-2400
▁av	-2401
▁cy	-2402
▁ge	-2403
▁km	-2404
,125	-2405
,650	-2406
Cogn	-2407
Tell	-2408
User	-2409
abor	-2410
ails	-2411
ames	-2412
aphy	-2413
arks	-2414
arts	-2415
astl	-2416
ateg	-2417
athe	-2418
blue	-2419
chec	-2420
chie	-2421
cing	-2422
coin	-2423
duce	-2424
eady	-2425
earc	-2426
eins	-2427
elie	-2428
ency	-2429
enot	-2430
erod	-2431
ervo	-2432
foil	-2433
gent	-2434
gins	-2435
grav	-2436
gthe	-2437
heit	-2438
hers	-2439
hing	-2440
hoto	-2441
iFor	-2442
icro	-2443
ideo	-2444
iece	-2445
ifug	-2446
iful	-2447
ilar	-2448
imin	-2449
inct	-2450
indu	-2451
inst	-2452
iods	-2453
ious	-2454
iven	-2455
izon	-2456
lele	-2457
life	-2458
line	-2459
ling	-2460
loud	-2461
mbol	-2462
mess	-2463
moon	-2464
ocur	-2465
olar	-2466
onds	-2467
ones	-2468
ores	-2469
ount	-2470
peat	-2471
ploy	-2472
rang	-2473
rict	-2474
ries	-2475
rise	-2476
roup	-2477
same	-2478
sess	-2479
sues	-2480
taic	-2481
tend	-2482
udit	-2483
umns	-2484
uros	-2485
uted	-2486
veni	-2487
vert	-2488
very	-2489
vive	-2490
ynam	-2491
yond	-2492
▁(16	-2493
▁0.9	-2494
▁1),	-2495
▁300	-2496
▁343	-2497
▁Ano	-2498
▁Bit	-2499
▁DEL	-2500
▁Ess	-2501
▁Eye	-2502
▁Fah	-2503
▁For	-2504
▁Gen	-2505
▁INS	-2506
▁Law	-2507
▁Mov	-2508
▁Mut	-2509
▁Nat	-2510
▁Ohm	-2511
▁One	-2512
▁PUT	-2513
▁Pos	-2514
▁Qub	-2515
▁Sun	-2516
▁UPD	-2517
▁alt	-2518
▁cel	-2519
▁chr	-2520
▁day	-2521
▁end	-2522
▁foc	-2523
▁gam	-2524
▁har	-2525
▁hav	-2526
▁hor	-2527
▁hyd	-2528
▁ins	-2529
▁lat	-2530
▁lin	-2531
▁low	-2532
▁mat	-2533
▁mel	-2534
▁mus	-2535
▁nec	-2536
▁off	-2537
▁pur	-2538
▁rat	-2539
▁sor	-2540
▁upd	-2541
▁ver	-2542
2.11.	-2543
Rapid	-2544
React	-2545
Sleep	-2546
ables	-2547
acent	-2548
aging	-2549
agram	-2550
ained	-2551
ainst	-2552
ality	-2553
andom	-2554
andsl	-2555
antle	-2556
aring	-2557
artph	-2558
asing	-2559
ators	-2560
auses	-2561
avior	-2562
awaii	-2563
dered	-2564
ellar	-2565
ensus	-2566
forms	-2567
hemas	-2568
hemat	-2569
hemis	-2570
heric	-2571
hibit	-2572
ieces	-2573
iency	-2574
illed	-2575
image	-2576
imate	-2577
inery	-2578
ingle	-2579
inist	-2580
inked	-2581
iques	-2582
ishes	-2583
isted	-2584
langu	-2585
ledge	-2586
oding	-2587
onoun	-2588
ource	-2589
ports	-2590
reams	-2591
reats	-2592
roact	-2593
small	-2594
tains	-2595
times	-2596
udied	-2597
ulate	-2598
unded	-2599
upies	-2600
usual	-2601
veals	-2602
▁Blue	-2603
▁Both	-2604
▁Cont	-2605
▁Hash	-2606
▁IEEE	-2607
▁Java	-2608
▁Lack	-2609
▁Merg	-2610
▁Once	-2611
▁Prim	-2612
▁SSID	-2613
▁Thus	-2614
▁Your	-2615
▁aims	-2616
▁apps	-2617
▁base	-2618
▁been	-2619
▁bend	-2620
▁bone	-2621
▁copy	-2622
▁dist	-2623
▁done	-2624
▁down	-2625
▁drop	-2626
▁feel	-2627
▁feet	-2628
▁foli	-2629
▁food	-2630
▁fore	-2631
▁give	-2632
▁hand	-2633
▁happ	-2634
▁heat	-2635
▁hist	-2636
▁impa	-2637
▁indu	-2638
▁ions	-2639
▁iron	-2640
▁lapt	-2641
▁laws	-2642
▁lost	-2643
▁mood	-2644
▁much	-2645
▁next	-2646
▁once	-2647
▁ones	-2648
▁past	-2649
▁pick	-2650
▁pict	-2651
▁pole	-2652
▁port	-2653
▁pres	-2654
▁real	-2655
▁rest	-2656
▁rise	-2657
▁risk	-2658
▁scal	-2659
▁sent	-2660
▁sequ	-2661
▁sets	-2662
▁side	-2663
▁stim	-2664
▁sust	-2665
▁task	-2666
▁test	-2667
▁tiss	-2668
▁trad	-2669
▁vacc	-2670
▁vers	-2671
▁wide	-2672
▁wind	-2673
Python	-2674
acting	-2675
ancing	-2676
ansfer	-2677
apters	-2678
arized	-2679
cepted	-2680
cience	-2681
depend	-2682
develo	-2683
ecting	-2684
either	-2685
elieve	-2686
ements	-2687
enoted	-2688
ergent	-2689
ervoir	-2690
essary	-2691
estamp	-2692
estial	-2693
ficult	-2694
gthens	-2695
iForge	-2696
ifugal	-2697
igning	-2698
intill	-2699
ipital	-2700
istics	-2701
isture	-2702
mental	-2703
minent	-2704
nessed	-2705
paring	-2706
planes	-2707
pleted	-2708
public	-2709
reases	-2710
remely	-2711
roduce	-2712
tering	-2713
uvants	-2714
▁0.90.	-2715
▁0.95.	-2716
▁1,125	-2717
▁Black	-2718
▁Einst	-2719
▁Other	-2720
▁Tides	-2721
▁Water	-2722
▁achie	-2723
▁activ	-2724
▁admin	-2725
▁aerod	-2726
▁align	-2727
▁alloc	-2728
▁asked	-2729
▁audit	-2730
▁avail	-2731
▁basic	-2732
▁beaut	-2733
▁bonds	-2734
▁bulge	-2735
▁cases	-2736
▁categ	-2737
▁centr	-2738
▁cloud	-2739
▁cools	-2740
▁could	-2741
▁cycle	-2742
▁delay	-2743
▁dimin	-2744
▁emits	-2745
▁equal	-2746
▁every	-2747
▁faced	-2748
▁finds	-2749
▁forms	-2750
▁forth	-2751
▁frequ	-2752
▁frict	-2753
▁genes	-2754
▁given	-2755
▁gives	-2756
▁group	-2757
▁heats	-2758
▁immut	-2759
▁invis	-2760
▁later	-2761
▁leads	-2762
▁least	-2763
▁lever	-2764
▁lines	-2765
▁lower	-2766
▁manag	-2767
▁marks	-2768
▁means	-2769
▁micro	-2770
▁moons	-2771
▁photo	-2772
▁physi	-2773
▁piece	-2774
▁query	-2775
▁reach	-2776
▁recon	-2777
▁relat	-2778
▁rocks	-2779
▁seems	-2780
▁serve	-2781
▁shape	-2782
▁share	-2783
▁slows	-2784
▁solar	-2785
▁state	-2786
▁steps	-2787
▁stops	-2788
▁taken	-2789
▁third	-2790
▁topic	-2791
▁units	-2792
▁usage	-2793
▁users	-2794
▁video	-2795
▁wants	-2796
▁white	-2797
▁whole	-2798
▁wired	-2799
Machine	-2800
Magnets	-2801
ditions	-2802
ections	-2803
gravity	-2804
induced	-2805
inistic	-2806
itional	-2807
itively	-2808
keeping	-2809
lightly	-2810
message	-2811
network	-2812
neurons	-2813
ography	-2814
ounters	-2815
plicity	-2816
portant	-2817
redibly	-2818
rencies	-2819
renheit	-2820
ustries	-2821
usually	-2822
voltaic	-2823
ynamics	-2824
▁30,000	-2825
▁DELETE	-2826
▁Dreams	-2827
▁During	-2828
▁Global	-2829
▁Hawaii	-2830
▁INSERT	-2831
▁Neural	-2832
▁Qubits	-2833
▁System	-2834
▁Thrust	-2835
▁UPDATE	-2836
▁active	-2837
▁actual	-2838
▁adjust	-2839
▁advant	-2840
▁allele	-2841
▁arrang	-2842
▁atomic	-2843
▁before	-2844
▁begins	-2845
▁beyond	-2846
▁bodies	-2847
▁bodily	-2848
▁brains	-2849
▁breaks	-2850
▁builds	-2851
▁bulges	-2852
▁chemis	-2853
▁coastl	-2854
▁commit	-2855
▁correl	-2856
▁decode	-2857
▁define	-2858
▁deploy	-2859
▁detect	-2860
▁either	-2861
▁emerge	-2862
▁enable	-2863
▁errors	-2864
▁events	-2865
▁expand	-2866
▁extend	-2867
▁extent	-2868
▁formed	-2869
▁frames	-2870
▁freeze	-2871
▁gaming	-2872
▁global	-2873
▁having	-2874
▁height	-2875
▁inputs	-2876
▁issues	-2877
▁itself	-2878
▁landsl	-2879
▁lesser	-2880
▁linked	-2881
▁locate	-2882
▁lookup	-2883
▁manner	-2884
▁mantle	-2885
▁masses	-2886
▁meters	-2887
▁mining	-2888
▁mobile	-2889
▁modern	-2890
▁modify	-2891
▁muscle	-2892
▁nature	-2893
▁neuros	-2894
▁online	-2895
▁orbits	-2896
▁pauses	-2897
▁person	-2898
▁pieces	-2899
▁posits	-2900
▁purple	-2901
▁random	-2902
▁rather	-2903
▁recall	-2904
▁repeat	-2905
▁reside	-2906
▁return	-2907
▁revert	-2908
▁scores	-2909
▁simply	-2910
▁single	-2911
▁sorted	-2912
▁sounds	-2913
▁speeds	-2914
▁starts	-2915
▁steady	-2916
▁stores	-2917
▁strike	-2918
▁sugars	-2919
▁sunset	-2920
▁supply	-2921
▁symbol	-2922
▁varies	-2923
▁visual	-2924
Dreaming	-2925
ablished	-2926
checking	-2927
earchers	-2928
entially	-2929
hibiting	-2930
itioning	-2931
language	-2932
negative	-2933
onounced	-2934
position	-2935
positive	-2936
services	-2937
venience	-2938
▁(16,650	-2939
▁300,000	-2940
▁802.11.	-2941
▁Another	-2942
▁Bitcoin	-2943
▁Control	-2944
▁Devices	-2945
▁Garbage	-2946
▁Genetic	-2947
▁Gravity	-2948
▁Machine	-2949
▁Merging	-2950
▁Natural	-2951
▁Primary	-2952
▁Storage	-2953
▁Version	-2954
▁actions	-2955
▁address	-2956
▁affects	-2957
▁against	-2958
▁airfoil	-2959
▁altered	-2960
▁balance	-2961
▁behaves	-2962
▁believe	-2963
▁biology	-2964
▁breathe	-2965
▁browser	-2966
▁carries	-2967
▁charged	-2968
▁chronic	-2969
▁collide	-2970
▁columns	-2971
▁combine	-2972
▁concise	-2973
▁content	-2974
▁decrypt	-2975
▁defines	-2976
▁denoted	-2977
▁diverge	-2978
▁earthqu	-2979
▁effects	-2980
▁element	-2981
▁encodes	-2982
▁engaged	-2983
▁entails	-2984
▁essence	-2985
▁expands	-2986
▁exposed	-2987
▁farther	-2988
▁focuses	-2989
▁foliage	-2990
▁foreign	-2991
▁formats	-2992
▁forward	-2993
▁freeing	-2994
▁frontal	-2995
▁greater	-2996
▁happens	-2997
▁heating	-2998
▁history	-2999
▁horizon	-3000
▁improve	-3001
▁indexes	-3002
▁insight	-3003
▁intense	-3004
▁keeping	-3005
▁laptops	-3006
▁largely	-3007
▁linking	-3008
▁located	-3009
▁managed	-3010
▁manages	-3011
▁mediums	-3012
▁melting	-3013
▁message	-3014
▁ordered	-3015
▁package	-3016
▁parties	-3017
▁passing	-3018
▁periods	-3019
▁picture	-3020
▁pigment	-3021
▁possess	-3022
▁quicker	-3023
▁reasons	-3024
▁repairs	-3025
▁retains	-3026
▁reveals	-3027
▁rounded	-3028
▁schemas	-3029
▁servers	-3030
▁sharing	-3031
▁similar	-3032
▁skilled	-3033
▁smaller	-3034
▁smartph	-3035
▁specify	-3036
▁stellar	-3037
▁storing	-3038
▁strands	-3039
▁strikes	-3040
▁studied	-3041
▁subduct	-3042
▁summary	-3043
▁sunrise	-3044
▁survive	-3045
▁testing	-3046
▁threats	-3047
▁tissues	-3048
▁transit	-3049
▁twisted	-3050
▁unusual	-3051
▁updated	-3052
▁vaccine	-3053
▁variety	-3054
▁verific	-3055
▁visible	-3056
▁weights	-3057
Airplanes	-3058
aboration	-3059
developer	-3060
hematical	-3061
pendently	-3062
resistant	-3063
▁Branches	-3064
▁Datagram	-3065
▁Einstein	-3066
▁Movement	-3067
▁Sunlight	-3068
▁Transfer	-3069
▁Vaccines	-3070
▁accessed	-3071
▁accurate	-3072
▁achieved	-3073
▁actively	-3074
▁activity	-3075
▁adapters	-3076
▁addition	-3077
▁adjacent	-3078
▁altering	-3079
▁altitude	-3080
▁auditory	-3081
▁behavior	-3082
▁boundary	-3083
▁browsing	-3084
▁collapse	-3085
▁composed	-3086
▁contains	-3087
▁continue	-3088
▁controls	-3089
▁converge	-3090
▁converts	-3091
▁creation	-3092
▁daylight	-3093
▁depleted	-3094
▁detected	-3095
▁diseases	-3096
▁distinct	-3097
▁dominant	-3098
▁dominate	-3099
▁dreaming	-3100
▁elements	-3101
▁encoding	-3102
▁encrypts	-3103
▁equation	-3104
▁estimate	-3105
▁executed	-3106
▁explains	-3107
▁floating	-3108
▁friction	-3109
▁governed	-3110
▁hydrogen	-3111
▁impaired	-3112
▁improves	-3113
▁increase	-3114
▁inferred	-3115
▁instruct	-3116
▁latitude	-3117
▁lighting	-3118
▁machines	-3119
▁messages	-3120
▁mobility	-3121
▁moisture	-3122
▁observed	-3123
▁observer	-3124
▁occupies	-3125
▁operates	-3126
▁pointers	-3127
▁powering	-3128
▁presence	-3129
▁previous	-3130
▁produced	-3131
▁property	-3132
▁protects	-3133
▁proteins	-3134
▁receives	-3135
▁recorded	-3136
▁referred	-3137
▁regulate	-3138
▁released	-3139
▁resource	-3140
▁responds	-3141
▁retroact	-3142
▁runtimes	-3143
▁scanning	-3144
▁scintill	-3145
▁securely	-3146
▁securing	-3147
▁separate	-3148
▁sequence	-3149
▁slightly	-3150
▁supports	-3151
▁temporal	-3152
▁theories	-3153
▁utilizes	-3154
▁versions	-3155
▁vibrates	-3156
CogniForge	-3157
▁Hypertext	-3158
▁Mutations	-3159
▁adjuvants	-3160
▁alignment	-3161
▁automatic	-3162
▁available	-3163
▁balancing	-3164
▁batteries	-3165
▁beautiful	-3166
▁celestial	-3167
▁chemicals	-3168
▁chemistry	-3169
▁collapses	-3170
▁collision	-3171
▁conductor	-3172
▁consensus	-3173
▁continues	-3174
▁cryptocur	-3175
▁currently	-3176
▁decreases	-3177
▁dependent	-3178
▁designing	-3179
▁developed	-3180
▁difficult	-3181
▁direction	-3182
▁divergent	-3183
▁encrypted	-3184
▁execution	-3185
▁exploring	-3186
▁explosive	-3187
▁extremely	-3188
▁favorable	-3189
▁formatted	-3190
▁generally	-3191
▁governing	-3192
▁guarantee	-3193
▁harnessed	-3194
▁hypertext	-3195
▁important	-3196
▁increased	-3197
▁induction	-3198
▁interacts	-3199
▁introduce	-3200
▁invisible	-3201
▁knowledge	-3202
▁leverages	-3203
▁longitude	-3204
▁machinery	-3205
▁magnetism	-3206
▁maintains	-3207
▁mechanism	-3208
▁molecular	-3209
▁movements	-3210
▁necessary	-3211
▁observing	-3212
▁occipital	-3213
▁packaging	-3214
▁preparing	-3215
▁producing	-3216
▁prominent	-3217
▁providing	-3218
▁reasoning	-3219
▁receivers	-3220
▁recording	-3221
▁refracted	-3222
▁releasing	-3223
▁repelling	-3224
▁reproduce	-3225
▁reservoir	-3226
▁separated	-3227
▁streaming	-3228
▁sustained	-3229
▁timestamp	-3230
▁turbulent	-3231
▁twinkling	-3232
▁universal	-3233
▁utilizing	-3234
▁variables	-3235
▁variation	-3236
▁vibration	-3237
established	-3238
▁Fahrenheit	-3239
▁Supervised	-3240
▁accurately	-3241
▁activities	-3242
▁advantages	-3243
▁applicable	-3244
▁attracting	-3245
▁authorized	-3246
▁blockchain	-3247
▁calculates	-3248
▁coastlines	-3249
▁collapsing	-3250
▁collisions	-3251
▁conditions	-3252
▁conductors	-3253
▁consisting	-3254
▁containing	-3255
▁continuous	-3256
▁convergent	-3257
▁deployment	-3258
▁describing	-3259
▁determines	-3260
▁developing	-3261
▁diminishes	-3262
▁earthquake	-3263
▁efficiency	-3264
▁encounters	-3265
▁eventually	-3266
▁exhibiting	-3267
▁explicitly	-3268
▁foundation	-3269
▁generating	-3270
▁generation	-3271
▁generators	-3272
▁geological	-3273
▁guarantees	-3274
▁incredibly	-3275
▁indication	-3276
▁industries	-3277
▁infections	-3278
▁influenced	-3279
▁influences	-3280
▁landslides	-3281
▁management	-3282
▁nucleotide	-3283
▁opposition	-3284
▁population	-3285
▁preventing	-3286
▁pronounced	-3287
▁propelling	-3288
▁protecting	-3289
▁psychology	-3290
▁reasonable	-3291
▁reclaiming	-3292
▁referenced	-3293
▁reflecting	-3294
▁registered	-3295
▁relativity	-3296
▁seismicity	-3297
▁signatures	-3298
▁simplicity	-3299
▁statements	-3300
▁structured	-3301
▁summarized	-3302
▁surrounded	-3303
▁techniques	-3304
▁transforms	-3305
▁turbulence	-3306
▁understand	-3307
▁wirelessly	-3308
Transmission	-3309
dependencies	-3310
▁Electricity	-3311
▁Essentially	-3312
▁Positioning	-3313
▁allocations	-3314
▁application	-3315
▁arrangement	-3316
▁atmospheric	-3317
▁categorized	-3318
▁centrifugal	-3319
▁connections	-3320
▁consolidate	-3321
▁contracting	-3322
▁convenience	-3323
▁correlation	-3324
▁determining	-3325
▁effectively	-3326
▁efficiently	-3327
▁establishes	-3328
▁explosively	-3329
▁frequencies	-3330
▁gravitation	-3331
▁informative	-3332
▁integration	-3333
▁interacting	-3334
▁intercepted	-3335
▁lightweight	-3336
▁maintaining	-3337
▁perspective	-3338
▁populations	-3339
▁portability	-3340
▁potentially	-3341
▁reconstruct	-3342
▁researchers	-3343
▁scalability	-3344
▁simulations	-3345
▁smartphones	-3346
▁stimulating	-3347
▁strengthens	-3348
▁traditional	-3349
▁transparent	-3350
▁administered	-3351
▁aerodynamics	-3352
▁consolidates	-3353
▁continuously	-3354
▁contributing	-3355
▁cryptography	-3356
▁definitively	-3357
▁establishing	-3358
▁immutability	-3359
▁implementing	-3360
▁incorporates	-3361
▁instructions	-3362
▁mathematical	-3363
▁neuroscience	-3364
▁perspectives	-3365
▁photovoltaic	-3366
▁transferring	-3367
▁transmitting	-3368
▁verification	-3369
Photosynthesis	-3370
▁automatically	-3371
▁characterized	-3372
▁collaboration	-3373
▁configuration	-3374
▁contributions	-3375
▁deterministic	-3376
▁environmental	-3377
▁functionality	-3378
▁incorporating	-3379
▁independently	-3380
▁microservices	-3381
▁physiological	-3382
▁psychological	-3383
▁retroactively	-3384
▁scintillation	-3385
▁significantly	-3386
▁superposition	-3387
▁triangulating	-3388
▁triangulation	-3389
▁Photosynthesis	-3390
▁configurations	-3391
▁implementation	-3392
▁retransmission	-3393
▁virtualization	-3394
▁characteristics	-3395
▁electromagnetic	-3396
(0	-3397
(1	-3398
,0	-3399
,1	-3400
,6	-3401
.1	-3402
.8	-3403
.9	-3404
0,	-3405
02	-3406
1)	-3407
1,	-3408
11	-3409
25	-3410
30	-3411
34	-3412
5)	-3413
5,	-3414
5.	-3415
50	-3416
6,	-3417
79	-3418
88	-3419
9,	-3420
90	-3421
95	-3422
99	-3423
=0	-3424
AI	-3425
AP	-3426
Ad	-3427
Ap	-3428
As	-3429
At	-3430
Bi	-3431
Bo	-3432
Br	-3433
By	-3434
CR	-3435
Ce	-3436
Ch	-3437
Co	-3438
DE	-3439
DN	-3440
Da	-3441
De	-3442
Dr	-3443
Ds	-3444
Du	-3445
Ea	-3446
Ei	-3447
El	-3448
Es	-3449
Ev	-3450
Ey	-3451
Fa	-3452
Fi	-3453
Fo	-3454
GE	-3455
GP	-3456
Ga	-3457
Ge	-3458
Gi	-3459
Gl	-3460
Gr	-3461
HD	-3462
HT	-3463
Ha	-3464
Ho	-3465
Hy	-3466
Ic	-3467
In	-3468
Is	-3469
It	-3470
Ja	-3471
LE	-3472
Li	-3473
Ma	-3474
Mo	-3475
Na	-3476
Ne	-3477
Ni	-3478
No	-3479
On	-3480
Ov	-3481
Ph	-3482
Pr	-3483
Py	-3484
RA	-3485
RE	-3486
Ra	-3487
Re	-3488
SD	-3489
SE	-3490
SI	-3491
Sa	-3492
Si	-3493
Sl	-3494
Sy	-3495
TC	-3496
TE	-3497
TT	-3498
Ti	-3499
.)	-3500
Ai	-3501
DA	-3502
ER	-3503
IE	-3504
IN	-3505
La	-3506
Me	-3507
Mu	-3508
Oh	-3509
Ot	-3510
PO	-3511
PU	-3512
Po	-3513
ST	-3514
Su	-3515
Te	-3516
UD	-3517
UP	-3518
Un	-3519
Us	-3520
Va	-3521
Ve	-3522
Vo	-3523
Wa	-3524
Wi	-3525
af	-3526
ai	-3527
au	-3528
ba	-3529
bd	-3530
bi	-3531
bj	-3532
bl	-3533
bo	-3534
br	-3535
bs	-3536
bu	-3537
by	-3538
ca	-3539
cl	-3540
cr	-3541
cs	-3542
cy	-3543
dC	-3544
da	-3545
di	-3546
dj	-3547
dm	-3548
do	-3549
dr	-3550
ds	-3551
dv	-3552
dy	-3553
ea	-3554
eb	-3555
ee	-3556
ef	-3557
eg	-3558
eh	-3559
ei	-3560
eo	-3561
eq	-3562
eu	-3563
ev	-3564
ew	-3565
ex	-3566
ey	-3567
ez	-3568
fa	-3569
fi	-3570
fl	-3571
fr	-3572
fu	-3573
fy	-3574
ga	-3575
gg	-3576
gh	-3577
gi	-3578
gl	-3579
gm	-3580
gn	-3581
go	-3582
gs	-3583
gt	-3584
gu	-3585
gy	-3586
ha	-3587
hi	-3588
hl	-3589
hn	-3590
ho	-3591
hq	-3592
hr	-3593
hs	-3594
ht	-3595
hu	-3596
ik	-3597
iq	-3598
iu	-3599
ix	-3600
ja	-3601
je	-3602
ju	-3603
ka	-3604
kc	-3605
kd	-3606
ki	-3607
kl	-3608
kn	-3609
ku	-3610
kw	-3611
ky	-3612
lc	-3613
ld	-3614
lf	-3615
lg	-3616
ls	-3617
lt	-3618
lv	-3619
me	-3620
mi	-3621
mn	-3622
mp	-3623
mu	-3624
my	-3625
na	-3626
nc	-3627
nf	-3628
ng	-3629
nh	-3630
ni	-3631
nk	-3632
nl	-3633
nm	-3634
nn	-3635
np	-3636
nr	-3637
nt	-3638
nu	-3639
nv	-3640
ny	-3641
oa	-3642
ob	-3643
oe	-3644
of	-3645
oi	-3646
oj	-3647
oo	-3648
ox	-3649
pd	-3650
pi	-3651
pm	-3652
po	-3653
pp	-3654
pr	-3655
pu	-3656
py	-3657
ra	-3658
rb	-3659
rc	-3660
rd	-3661
rf	-3662
rg	-3663
rh	-3664
ri	-3665
rk	-3666
rl	-3667
rm	-3668
rn	-3669
rp	-3670
rr	-3671
rs	-3672
rt	-3673
ru	-3674
rv	-3675
rw	-3676
sa	-3677
sc	-3678
sf	-3679
sh	-3680
si	-3681
sk	-3682
sl	-3683
su	-3684
ti	-3685
tl	-3686
tm	-3687
tn	-3688
to	-3689
tp	-3690
ts	-3691
tt	-3692
tu	-3693
tw	-3694
ty	-3695
ua	-3696
ui	-3697
uo	-3698
uu	-3699
va	-3700
vi	-3701
wi	-3702
wl	-3703
wo	-3704
wr	-3705
ws	-3706
xa	-3707
xc	-3708
xe	-3709
xh	-3710
xi	-3711
xp	-3712
ya	-3713
yc	-3714
yd	-3715
yg	-3716
yi	-3717
yl	-3718
ym	-3719
yo	-3720
yp	-3721
yr	-3722
ys	-3723
yt	-3724
za	-3725
ze	-3726
zi	-3727
zo	-3728
▁2	-3729
▁8	-3730
▁K	-3731
▁V	-3732
▁Y	-3733
▁i	-3734
▁q	-3735
▁u	-3736
02.	-3737
300	-3738
Blu	-3739
Cel	-3740
Dat	-3741
Dre	-3742
Dur	-3743
Ear	-3744
Ein	-3745
For	-3746
Gar	-3747
Git	-3748
Gro	-3749
Has	-3750
Mag	-3751
Mer	-3752
Nat	-3753
Pro	-3754
Sin	-3755
Tid	-3756
Ver	-3757
Wat	-3758
Whe	-3759
WiF	-3760
aci	-3761
ade	-3762
ait	-3763
ala	-3764
alt	-3765
alu	-3766
ann	-3767
aps	-3768
ara	-3769
ark	-3770
ata	-3771
ati	-3772
ato	-3773
att	-3774
atu	-3775
bag	-3776
bat	-3777
bed	-3778
bin	-3779
bol	-3780
bon	-3781
bor	-3782
bre	-3783
but	-3784
cal	-3785
cat	-3786
chi	-3787
cin	-3788
cis	-3789
cod	-3790
col	-3791
cor	-3792
cre	-3793
cte	-3794
ctl	-3795
cts	-3796
cur	-3797
cut	-3798
dat	-3799
Gen	-3800
Ray	-3801
Und	-3802
Wis	-3803
ben	-3804
cen	-3805
cti	-3806
del	-3807
den	-3808
dic	-3809
din	-3810
dis	-3811
don	-3812
dow	-3813
dre	-3814
dro	-3815
eal	-3816
ean	-3817
eas	-3818
eat	-3819
ece	-3820
eci	-3821
eco	-3822
eds	-3823
eed	-3824
eel	-3825
ees	-3826
ehe	-3827
eis	-3828
ena	-3829
eng	-3830
enh	-3831
eno	-3832
env	-3833
eol	-3834
era	-3835
erc	-3836
erd	-3837
ere	-3838
erf	-3839
eri	-3840
ero	-3841
erp	-3842
err	-3843
ert	-3844
eru	-3845
erv	-3846
esi	-3847
eth	-3848
eur	-3849
eut	-3850
fin	-3851
gag	-3852
gas	-3853
gat	-3854
ged	-3855
gel	-3856
ger	-3857
ghe	-3858
gin	-3859
gis	-3860
giv	-3861
gle	-3862
gor	-3863
hat	-3864
hav	-3865
hea	-3866
hec	-3867
hei	-3868
hel	-3869
heo	-3870
hey	-3871
hic	-3872
hig	-3873
hin	-3874
his	-3875
hit	-3876
hon	-3877
hor	-3878
hre	-3879
hyl	-3880
iag	-3881
ian	-3882
iat	-3883
ica	-3884
icu	-3885
ien	-3886
iff	-3887
igu	-3888
ils	-3889
ime	-3890
ina	-3891
inc	-3892
inf	-3893
ini	-3894
inp	-3895
inu	-3896
inv	-3897
iol	-3898
irt	-3899
=0.	-3900
Lac	-3901
Mac	-3902
Nic	-3903
Vac	-3904
aic	-3905
ani	-3906
any	-3907
bro	-3908
▁	-3909
e	-3910
t	-3911
a	-3912
i	-3913
n	-3914
s	-3915
o	-3916
r	-3917
c	-3918
h	-3919
l	-3920
d	-3921
u	-3922
m	-3923
g	-3924
p	-3925
f	-3926
y	-3927
,	-3928
w	-3929
b	-3930
v	-3931
.	-3932
k	-3933
T	-3934
(	-3935
)	-3936
I	-3937
x	-3938
-	-3939
W	-3940
A	-3941
P	-3942
E	-3943
q	-3944
S	-3945
?	-3946
0	-3947
=	-3948
j	-3949
N	-3950
H	-3951
C	-3952
D	-3953
z	-3954
'	-3955
9	-3956
G	-3957
5	-3958
O	-3959
R	-3960
U	-3961
2	-3962
M	-3963
8	-3964
:	-3965
1	-3966
Y	-3967
B	-3968
V	-3969
6	-3970
F	-3971
L	-3972
"	-3973
/	-3974
3	-3975
+	-3976
Q	-3977
4	-3978
7	-3979
K	-3980
’	-3981
#	-3982
;	-3983
J	-3984
_	-3985
—	-3986
→	-3987
